002
015
1E0
175
006
040
03C
015
04A
1B5
188
039
038
039
040
025
198
1A8
1FB
020
046
014
003
197
1CF
03A
038
01F
1F7
1AD
1A9
1C4
038
01A
065
1D2
1C4
05A
187
044
029
00F
034
037
026
1AF
1E9
00B
015
02E
04A
00C
1C8
01F
047
06D
02A
012
1D3
1C4
001
02C
033
1E7
1BF
19F
1D8
00E
032
007
1D9
19E
058
192
1F7
1DC
1E7
023
008
05F
1C4
004
001
008
024
05C
065
1DC
00F
1E3
023
019
05E
056
003
000
012
1E7
1F2
1DC
1FF
04E
017
022
1B6
1D6
1B9
00C
1BB
03C
1B3
17D
02E
1CF
1FA
1E1
1F4
1C7
1DD
010
01B
03B
01C
003
1C9
1B7
1EF
032
018
02F
011
1CF
196
1EF
032
01D
065
029
00F
196
045
1A0
1A6
01A
012
1ED
1A9
00D
1A6
1E4
03B
010
002
1AB
034
009
011
05B
028
1C5
1C0
024
03E
00D
02F
01B
1EA
1EE
032
026
030
053
03B
1C8
1B0

